00
0F
2D
18
2A
B9
2A
13
20
F5
D1
32
14
3A
EC
FA
3A
FA
24
F6
30
07
07
F8
1B
0B
09
FD
0F
1A
F1
F1
E1
FA
E2
EA
FB
04
FA
BE
FB
0B
15
09
CE
E3
10
0A
F6
F7
DE
07
0A
11
10
D0
F8
04
0C
EF
8D
EE
F9
1D
E3
E3
EC
F2
00
D8
24
F4
FF
00
F9
