0A
15
06
F0
EF
18
F7
DE
19
10
CB
E6
E0
FA
FF
93
9E
BC
E4
15
0E
50
42
20
FF
0F
01
05
0D
F7
FB
14
1F
17
01
39
14
24
10
16
DA
B9
D6
E7
01
F2
E3
F4
FB
E1
0C
F9
0F
12
FF
0B
1E
21
FF
02
FC
EB
EC
E2
FF
DC
A9
D6
F1
EA
DF
20
49
1E
06
