EA
07
08
F8
F6
04
0D
0B
00
DB
0C
13
0A
E2
DD
09
F7
D9
D3
00
F7
FA
E7
EE
FF
DD
03
24
16
24
F5
10
15
3E
2F
11
1F
25
12
E8
11
06
16
D5
C7
E7
E8
E6
00
E4
F7
08
F2
E3
0E
F2
E7
24
1F
36
E6
F5
01
F0
FC
E1
18
FF
04
1F
F9
0A
12
02
EE
